[PAD]
[UNK]
[START]
[END]
'
,
.
0
1
2
3
4
5
6
7
8
9
?
a
b
c
d
e
f
g
h
i
j
k
l
m
n
o
p
q
r
s
t
u
v
w
x
y
z
the
is
you
to
what
it
and
in
my
of
do
was
he
have
are
why
they
that
did
for
on
me
##s
with
call
when
how
an
because
but
can
like
his
about
one
if
get
at
so
your
just
who
say
be
she
out
does
don
up
all
people
would
no
her
know
not
man
there
into
this
got
between
said
had
from
joke
difference
has
we
two
their
as
wife
other
make
them
hear
only
time
never
go
will
him
by
always
take
told
really
##ing
day
says
bar
now
sex
am
good
after
##ed
guy
asked
think
friend
new
many
were
trump
off
then
see
today
some
down
where
girlfriend
too
dad
want
didn
been
favorite
first
jokes
tell
called
going
ll
last
women
##d
or
someone
back
girl
black
over
doctor
##y
more
walks
old
common
than
went
woman
should
could
bad
##er
well
both
best
##e
life
doesn
made
way
dog
little
thing
name
before
knock
every
ever
put
year
being
most
much
night
eat
come
work
heard
shit
cross
still
love
world
once
right
gay
job
use
car
find
stop
give
used
##t
any
its
hard
years
getting
gets
son
having
change
##r
person
long
need
found
white
couldn
dead
here
lot
##ly
hate
very
left
##a
thought
everyone
wanted
big
house
walk
came
men
which
saw
donald
chicken
great
light
10
while
mom
keep
around
even
guess
something
those
water
better
guys
kids
look
kind
let
##o
nothing
dick
road
home
won
baby
makes
died
fat
fucking
three
school
sorry
lost
same
hey
food
jesus
our
fuck
play
goes
away
funny
fish
myself
tried
without
blind
wrong
red
##n
part
sure
drink
ass
through
things
##es
##i
friends
hand
god
hit
high
kid
face
money
wasn
asks
us
boy
head
next
##l
isn
book
full
took
mean
ask
again
pretty
another
bartender
christmas
feel
gave
cause
started
die
penis
game
police
yesterday
end
legs
mother
teacher
everything
hitler
mexican
favourite
reddit
until
least
apparently
stand
wear
believe
word
bought
lightbulb
start
making
oh
buy
comes
own
whats
help
hot
president
movie
looking
family
kill
coffee
cow
door
girls
run
doing
##h
morning
party
seen
father
read
coming
trying
eating
##al
half
live
horse
turns
must
anything
cat
child
during
finally
please
small
##on
gonna
tree
children
chinese
real
happy
already
actually
room
##k
parents
america
worst
turn
group
place
recently
show
##in
bed
wall
american
bulb
yes
remember
side
fire
try
dark
words
bill
wouldn
store
nice
number
under
become
may
watch
fall
##us
happens
beer
eyes
cheese
anyone
blonde
free
french
leave
##m
pay
replied
wanna
probably
bus
yo
body
times
beat
fell
cold
broke
afraid
might
second
ex
line
enough
problem
hair
met
sleep
toilet
week
edit
nuts
saying
days
since
four
screw
date
pizza
inside
turned
nsfw
pirate
##ers
german
aren
type
##ic
phone
wants
walked
looks
these
hands
nobody
computer
cut
husband
music
santa
instead
news
playing
talk
20
mind
balls
understand
drive
apple
eye
talking
11
also
country
pregnant
class
named
jewish
such
russian
open
taking
wait
arrested
working
paper
post
hole
together
fired
ice
married
whole
short
decided
pants
each
thanks
##ie
front
sister
##c
telling
##p
none
suicide
##le
caught
means
priest
using
##ion
takes
fight
space
##g
john
math
prostitute
though
yeah
brown
racist
##u
fly
fun
yet
walking
porn
milk
star
cancer
restaurant
drug
matter
stuck
100
death
blue
likes
x200b
anti
jew
elephant
himself
hope
birthday
haven
few
middle
box
hell
business
green
rock
leg
sea
sick
##an
killed
letter
happened
knew
shot
brother
bread
mine
egg
blood
club
idea
king
12
dogs
office
ok
song
arms
bit
keeps
band
orange
wish
bank
earth
sound
##ist
50
male
meat
pick
replies
against
bear
driving
else
plane
running
ugly
table
wonder
sometimes
bathroom
feet
female
couple
ones
rest
##ting
shoes
done
either
hillary
poor
behind
butt
damn
jack
shouldn
clinton
five
company
break
bring
count
yourself
duck
answer
michael
sir
dinner
ate
outside
sign
drunk
past
six
self
worse
drinking
foot
prison
shop
win
course
ten
top
ago
anal
church
cool
different
lady
tea
thinking
##en
patient
invented
lose
gun
war
##b
born
ground
russia
##ies
daughter
piece
boss
dollar
fast
question
stole
wearing
##ment
##x
dyslexic
japanese
order
ball
local
ran
throw
test
jews
kept
later
mouth
taste
stupid
##man
laugh
terrible
flat
team
bird
fruit
set
asian
blow
far
mama
street
student
##less
anymore
knows
race
sad
cannibal
heart
cows
dont
meet
vegan
##or
case
hold
law
animal
driver
internet
period
straight
almost
til
##ation
clean
hours
human
irish
letters
months
forget
gas
player
sheep
living
single
tells
true
##te
accidentally
stick
tired
##th
large
reason
fine
americans
asshole
sitting
watching
credit
looked
angry
dating
write
bunch
lesbian
less
hospital
step
gone
nun
nose
fit
officer
okay
air
close
drugs
easy
glass
minutes
giving
sexual
im
quite
italian
miss
muslim
north
worry
works
funeral
gold
punchline
stay
story
uncle
college
juan
moon
snow
able
factory
nazi
move
pussy
smell
trust
wet
##able
##w
batman
boat
cock
feminist
lawyer
##um
picture
trouble
wedding
deer
field
jump
million
suck
young
dirty
mad
midget
broken
care
teeth
##rs
deaf
forgot
hide
point
weed
##ble
china
marriage
neither
often
relationship
sense
types
##st
eggs
late
low
thank
zoo
babies
became
english
finish
gives
pull
sub
woke
beef
flying
halloween
machine
needed
runs
shower
##ch
##ia
30
state
super
cop
drop
lives
seven
virgin
bike
mr
serve
support
themselves
tomorrow
bigger
crack
sounds
farmer
feeling
hooker
longer
pain
usually
viagra
weird
maybe
twice
united
unless
catholic
language
repost
tv
hardest
quit
fucked
homeless
huge
kicked
month
reading
##ping
catch
holy
roll
dealer
hi
humor
inches
mexicans
starts
sun
wheelchair
government
grandfather
iphone
masturbating
soon
bag
calling
dr
except
grandpa
jail
##ian
##ive
crazy
threw
beautiful
check
dinosaur
fake
##ry
##ter
spanish
whenever
##is
needs
park
seconds
sentence
sperm
stopped
##ted
asking
biggest
indian
ocean
round
sandwich
smells
vegetable
##est
##z
british
control
arm
doctors
paint
wine
##f
##ts
cream
train
age
building
fingers
gender
ring
seems
sell
tonight
video
##ine
cheap
clock
fan
frog
piano
smoke
##ant
bottom
deal
everybody
pun
taken
dying
known
listen
mate
power
##ce
bee
putting
smoking
puns
windows
##ity
clothes
grow
jackson
nut
prefer
south
##el
breakfast
condoms
deep
felt
harry
honey
wrote
##0
000
early
realized
sit
sucks
thinks
window
double
election
fact
isis
learn
original
across
beach
glasses
history
land
password
popular
send
standing
boyfriend
canadian
given
iron
naked
weight
wood
##re
addicted
backwards
dentist
games
heavy
truck
15
alone
captain
changed
gym
wow
bitch
cake
fart
hurt
problems
system
##ty
card
hang
opposite
pair
potato
alcohol
burn
city
ear
future
literally
memory
rip
trees
turkey
condom
loves
##1
baseball
bean
books
breaking
finger
pool
square
town
bomb
cats
diarrhea
important
station
##it
divorce
dropped
floor
roman
soup
##ate
pee
pirates
warm
##ling
alabama
cars
cup
dude
google
momma
perfect
pilot
public
stairs
dies
entire
football
ho
learned
poop
seeing
speak
starting
##ous
##tion
accident
clown
crime
crying
dream
ghost
rich
shoot
somebody
third
##2
brain
comedian
special
##et
average
boys
cant
horses
keller
lion
spell
##ge
communist
magician
others
pepper
titanic
##ne
chair
illegal
judge
kitchen
names
paid
passed
salad
##ful
build
charged
happen
kim
leaves
mathematician
pasta
sent
cost
hasn
opened
pink
roses
##ar
ant
becomes
murder
pencil
shut
diet
leaving
pokemon
potter
punch
states
##ent
animals
bob
jobs
selling
25
alive
completely
cum
disease
kick
mass
pig
roof
scientists
smart
steve
surprised
teach
worked
dress
drinks
enjoy
france
mirror
vampire
bottle
dollars
em
golf
missing
wars
cops
de
hearing
pass
terrorist
2020
alphabet
battery
charge
cook
hungry
peter
positive
putin
##as
##ism
##se
abortion
extra
george
grandma
scared
tall
unfortunately
blew
canada
discovered
exam
hanging
korea
minor
seem
##am
chance
cry
expensive
fear
holes
push
sleeping
everywhere
gotta
laid
secret
whale
africa
avoid
cocaine
flies
hour
key
princess
supposed
travel
##ness
birds
birth
dressed
killing
knife
laughing
non
redditor
service
snake
un
##ck
aids
bet
falls
hello
higher
itself
plastic
spot
vote
##ns
##ra
art
bang
chef
chuck
failed
meant
online
pulled
soviet
term
40
buddy
chocolate
depressed
dumb
facebook
ladies
metal
ordered
pro
ride
stuff
upset
alzheimer
calls
constipated
due
ends
idiot
library
master
pissed
position
potatoes
pounds
tongue
##4
##ve
erection
faster
lesbians
nine
note
oc
pet
steak
waiter
wake
69
artist
cannot
cents
chemistry
competition
finding
scientist
spider
worth
##3
##ee
##nt
##up
14
2016
attractive
dance
exactly
experience
pot
snoop
title
wondering
writing
banana
butter
chick
color
mexico
paul
save
screaming
silent
tank
trip
##9
##at
##v
cover
denim
depends
famous
feels
force
hates
hill
holding
laughed
medium
obama
oil
orders
skeleton
speed
stolen
tip
tits
boobs
ears
feed
finished
numbers
planet
slow
social
soda
watched
add
corn
cuz
dicks
fetish
film
helen
imagine
norris
salt
sing
bees
binary
garbanzo
magic
mum
pie
piss
present
stephen
touch
waiting
allowed
anyway
dry
masturbate
meal
minute
neighbor
oven
polish
rhymes
ya
##men
blowjob
chess
delivery
jam
juice
mix
movies
national
played
rather
shoe
summer
tents
underwear
vagina
18
african
alcoholic
bra
career
kidding
masturbation
redneck
science
ship
vegetables
winter
90
area
bush
camp
court
difficult
dysfunction
fastest
feminists
fix
humans
meeting
prime
skin
study
suddenly
vision
##ped
bucket
christian
doors
figure
greatest
ready
seriously
similar
sodium
spent
swim
tastes
wash
##ged
banned
board
built
horny
ladder
plan
seat
share
students
##ur
brought
buying
daddy
dna
fridge
germany
giant
hipster
lie
page
psychic
scream
shows
yellow
##ke
##ure
airplane
bone
fighting
guitar
organ
rabbit
root
shooting
tie
weeks
##ll
baker
belt
bowl
closet
eats
ended
grass
sees
vacuum
##6
##ary
##os
closed
empty
eve
farm
join
nurse
pan
pop
stealing
stops
sweet
thanos
trans
uses
##king
attack
bell
corner
ed
eh
hotel
monkey
na
size
sold
wooden
##ated
##nce
13
basketball
choose
definition
hawking
killer
lee
queen
shirt
twin
al
candy
christ
dave
elephants
lunch
owner
security
snowman
amazing
attention
eventually
falling
lazy
liked
marijuana
near
negative
safe
sport
stars
therapist
visit
west
##7
##ger
##ma
80
army
coke
con
criminal
describe
dough
lettuce
mike
mistake
recent
singing
whore
##8
##ally
ants
april
growing
interviewer
karma
lead
sale
vegetarian
washing
whose
bible
choice
definitely
flag
flight
load
mario
mountain
politician
prince
slept
soap
swimming
traffic
weren
worried
##ard
##tic
eight
fans
flowers
form
friday
garden
germans
ghosts
ha
holiday
microsoft
patients
rapper
rid
spend
steal
tennis
thats
tit
##line
beats
cell
comedy
considered
conversation
medical
mosquito
plus
rate
tom
trick
voice
##de
ain
australian
ban
cannibals
character
circumcision
crash
dum
farts
loud
marry
players
prize
professor
sky
strong
surgery
toes
weekend
##led
##na
airport
astronaut
ba
commit
confused
crashed
da
east
forest
fox
gordon
heaven
hits
match
moment
stoned
wheel
##5
##ds
##dy
##ging
cosby
forward
gf
lack
lots
mushroom
realize
showed
soul
trash
wallet
worker
act
camping
crisis
dear
fence
list
lord
major
mile
posted
rabbi
tampon
##les
apart
basement
bi
created
cunt
fresh
issues
james
joe
johnson
market
mary
member
priests
river
robin
sat
semen
subreddit
totally
treat
##ite
##ks
##ned
##tor
99
afford
alright
bacon
barber
capital
data
doc
everyday
grammar
greek
irishman
neck
possible
rape
record
rolling
serious
toast
##ey
##id
##ier
##ny
accused
adam
asleep
blondes
breast
carry
cheating
cliff
clowns
cousin
elon
especially
expect
gang
imaginary
odd
presidential
pressure
religious
usa
account
alt
correct
crap
england
excited
girlfriends
pen
pope
religion
smith
thanksgiving
tickles
urine
yoda
absolutely
ahead
atheist
bath
donkey
handle
kinda
kinds
oral
plant
premature
prostitutes
redditors
robot
tiny
toy
van
vs
whether
amazon
argument
bastard
buck
button
calendar
cards
emo
held
horrible
lobster
lying
members
missed
opening
quick
quickly
socks
sore
threesome
universe
##oo
##ver
amount
chemist
condition
dairy
earlier
glad
jimmy
korean
listening
lit
mars
offender
pocket
soccer
thief
throat
vest
zero
##rd
adult
bolt
bruce
cowboy
customer
fishing
iraq
nail
native
psychiatrist
remove
sean
sexually
upon
view
web
written
##nd
beating
boo
breasts
chocolates
claus
cooking
degrees
diagnosed
ducks
fail
fault
final
gravity
jong
military
nearly
row
scale
shocked
sticky
tuna
weather
##ot
##ving
david
example
hat
musk
pi
pictures
pieces
robbed
seal
shame
shitty
soft
soldier
uk
welcome
##ized
##ng
##ton
advice
balance
bicycle
border
drank
grave
jelly
knee
laughs
librarian
mail
mouse
olympics
outstanding
plays
removed
situation
solve
spaghetti
stage
stomach
successful
sugar
suit
whatever
##cy
##il
##ious
##to
##way
ah
boring
cure
disney
easter
health
jeans
lighter
normal
picked
places
proud
reach
scarecrow
sports
tinder
toe
vegans
wins
##cing
##ls
16
alien
along
brand
brothel
bucks
cereal
chickens
concert
cute
dangerous
engineer
europe
evil
filled
harder
hiding
kiss
losing
nah
netflix
reptile
singer
stable
stories
tips
twenty
wind
##ide
##ps
bach
breaks
celebrate
chris
dig
helium
lawyers
lay
mark
miles
nazis
peace
raise
shout
sleeps
thermometer
##one
##ual
##ze
24
adopted
agree
changing
cinderella
draw
dyslexia
follow
keyboard
lately
manager
mcdonald
mon
navy
pack
parking
sexy
syndrome
tight
tough
virginity
weak
weigh
wheels
##ists
##ize
##me
##ors
##out
acid
annoying
brexit
chickpea
constipation
contest
degree
dwarf
ea
gift
invisible
jumped
media
moved
musical
offensive
orgasm
rights
rubber
stranger
tooth
uranus
##ah
##ay
##sh
##ta
alligator
australia
camera
explain
general
identify
immediately
medicine
nailed
practice
rex
shoulder
subway
teller
till
wrap
##ad
##ance
##house
##ise
##red
60
breath
coffin
communism
complain
dre
grandmother
joint
kevin
knight
muslims
ouch
physics
rap
relationships
results
rice
rocks
saudi
site
skydiving
strange
suffer
surprise
swallow
transgender
vacation
vader
winning
woods
younger
##my
ancient
announced
anywhere
attacked
award
bears
cigarette
darth
devil
drove
electric
goat
gorilla
grape
gynecologist
holocaust
interview
lights
lines
olympic
owl
sack
sand
shark
sits
split
strip
subject
towers
##age
##la
bedroom
ben
blowing
brings
cleaner
clearly
complete
disappointed
elevator
employee
exist
handed
harambe
level
lifetime
loved
pole
political
price
questions
released
return
series
stroke
tense
violets
wurst
##co
##ium
##un
bloody
boner
brothers
christopher
comments
construction
decide
dishes
european
ham
hoe
hurts
ill
johnny
lips
lived
lol
ma
mommy
moving
nasa
nervous
onions
poker
poo
rooster
search
simple
society
stone
tattoo
turning
website
yell
##ball
arguing
awkward
aye
bond
bull
fair
figured
finds
forever
grew
guns
hispanic
insurance
luckily
lucky
mixed
natural
octopus
peanut
pile
polar
programmer
report
rope
sanders
stool
text
version
watches
##ding
##ons
200
500
bernie
boomerang
brazilian
carrying
code
fortune
hockey
leader
meaning
nuclear
pound
professional
refrigerator
regular
riding
rings
shake
shopping
spelling
stevie
sucking
surgeon
swear
tifu
whoever
yours
##der
apples
bananas
bills
blame
boob
brick
chin
depression
dressing
drivers
file
frank
freezer
fucks
ginger
interest
ironic
paying
responded
stock
thor
tiger
useless
ways
wild
##by
##ol
##pa
##ries
addiction
chernobyl
circle
circus
countries
disabled
dj
ejaculation
epileptic
escaped
frozen
hurricane
jungle
microwave
monster
multiple
net
orgy
partner
per
rain
realised
rick
season
sells
signs
speech
stands
tries
valentine
##da
acting
california
cigarettes
costume
eaten
golden
hated
highest
invited
iran
jamaican
japan
liquor
midgets
mist
otherwise
parrot
pills
receive
republicans
rule
seemed
spread
steps
ticket
yelled
york
zombie
##ft
##ld
##let
##med
##ms
##pe
acne
action
airlines
barman
bin
boil
bridge
buried
ceiling
couch
crusty
dads
dictionary
elected
farted
glue
hero
humour
interesting
jedi
main
parent
penny
pulls
puts
records
several
shots
sink
stalin
swallowed
teenage
training
trumps
truth
whiskey
##ating
##ct
##ery
##ities
##mate
##rt
according
beers
buffalo
cent
clinic
content
cos
energy
furniture
hook
hung
international
lies
lonely
passengers
personality
program
pub
purple
ramsay
resolution
responds
reverse
solo
throwing
toys
twins
##iest
##ming
##ner
##op
actor
bright
busty
click
convention
covered
crowd
crush
crustacean
debate
dessert
direction
disappear
dozen
everytime
extremely
garbage
guard
hippo
holds
homosexual
loan
luke
massive
mobile
moore
movement
pc
plate
pulling
pumpkin
quack
sadly
shock
sin
spirit
talks
tower
visited
wives
yeast
youtube
##bs
##ial
##land
##per
##ron
##ut
##ved
21
app
carrot
cash
com
culture
dam
heads
hire
hired
intolerant
jim
mechanic
mistakes
model
moses
musician
patrick
phones
politicians
pushed
slip
stoner
studies
sunday
thyme
truly
waist
walker
wizard
##back
##ish
##ue
1000
19
addict
answers
awesome
bars
beans
beauty
bro
bullet
busy
computers
connery
easier
einstein
entered
excuse
ford
fries
however
kills
older
posts
presents
rare
ruined
samsung
shape
shits
shouted
somewhere
style
switch
tesla
thai
track
ups
##do
##ence
amy
answered
armed
assholes
atoms
baked
burned
compliment
counter
cutting
diana
easily
enter
forced
impossible
jar
lift
march
noise
noticed
obviously
pigs
press
pride
sensitive
similarity
smaller
smile
steaks
tail
texas
tomato
trade
tripping
##ba
##ki
##om
attacks
audience
batteries
chest
chips
clap
divorced
dreams
electricity
escape
fits
following
genie
genius
gotten
grade
houses
jenner
jerk
knees
laws
locked
message
nevermind
onion
onto
parachute
plot
related
rub
sausage
served
sherlock
solid
suffering
switzerland
thesaurus
victims
witch
wondered
##ir
##ka
2017
2018
arabia
asians
blows
buddhist
burger
cashier
community
create
department
disorder
dumped
edge
event
fluid
greet
heroin
hip
hundred
infection
kkk
laced
lactose
learning
leper
likely
offer
opinion
personally
plumber
politics
quality
random
richard
section
seek
shell
silence
sticks
tape
toad
uno
violence
washington
yelling
##ible
##que
##ro
aim
album
arab
awake
cantaloupe
cells
center
cheesy
clothing
complaining
confuse
constantly
email
fifth
grey
mafia
obese
olive
paris
pointless
quarter
refused
roommate
russians
spray
testicles
tractor
trapped
wears
wore
##ified
##ning
##py
70
agent
anybody
atom
blender
burnt
condescending
congress
courtesy
current
czech
dish
drummer
egyptian
inch
insomniac
iq
jacket
joined
knocked
loss
melons
monk
nickname
product
quiet
radio
ray
roy
saved
scene
scissors
screen
software
std
taught
tire
waste
wii
workers
##ess
##hole
##ler
##mer
##mo
##tes
abuse
auto
battle
below
blown
bones
clear
concentration
conspiracy
copy
criminals
currently
detective
dildo
ending
hitting
industry
ireland
island
justin
kermit
legal
mess
misses
neighbors
notice
opens
programmers
reaction
solution
spacey
twitter
unemployed
union
warning
wifi
##io
##over
##ral
##rate
##und
aliens
ambulance
apartment
bmw
bug
bunny
burning
complex
customers
dump
greece
grenade
grocery
haircut
hipsters
honest
issue
justice
kangaroo
kidnapping
laptop
meth
november
nudist
outlaws
pray
pressing
procrastination
rear
rectal
research
salty
showers
snack
solar
spice
st
starbucks
stepped
superhero
technology
tequila
theory
traveling
usain
walmart
whey
within
##ants
##ered
##ile
##ring
##use
agnostic
arnold
base
bay
bitches
boiling
bomber
butcher
chasing
closer
colors
documentary
dolphin
donate
drowning
epstein
eu
exercise
eyed
fill
finnish
immigrants
interested
irony
kfc
lincoln
mourning
nein
offered
orphans
pedophile
penguin
policeman
porcupine
pork
pre
proper
protein
recycling
refuse
reposts
republican
rise
roast
rules
sauce
scotsman
serial
shelf
showing
silly
slut
suicidal
teachers
ted
ton
tony
touched
tuesday
turtle
university
##bing
##board
##j
##kin
45
ad
bass
bite
broom
cheat
climate
comment
dates
dishwasher
fed
florida
golfer
helping
highway
id
india
ken
knot
la
lick
marx
mrs
newspaper
noises
olds
parties
registered
retarded
sharp
songs
source
stays
superman
supporters
trap
wave
##go
##hip
##ions
##izing
##lt
##sing
##ss
admit
amish
arrest
ash
awful
bags
based
canadians
chase
cleaning
clickbait
costs
counting
counts
dinosaurs
drag
drown
eagle
economy
farmers
flags
flew
gross
hookers
liar
log
longest
lower
martin
mental
millions
nation
neighbour
pence
perfectly
personal
plants
pronounce
rapist
reality
respect
response
scottish
shaking
simply
slowly
sneeze
squirrel
submarine
swing
tax
tears
terrorists
toaster
wing
wise
##head
##ins
##tions
911
bald
bowling
bride
co
crab
cucumber
dell
dos
equal
galaxy
grate
gum
habit
herself
lets
levels
loses
mention
miner
moo
neighborhood
newton
oops
physicist
pillow
reasons
screams
sisters
stripper
survive
terminal
themed
thoughts
total
towards
vaxxer
vet
xbox
##ga
##ical
##ky
##off
##rian
##rn
##sy
##ug
amputee
article
becoming
beethoven
britain
cast
changes
channel
console
crows
daily
didnt
digging
distance
domestic
flu
furious
generation
genes
giraffe
glove
grab
immigrant
implants
jeff
jk
keeping
laundry
obsessed
penises
perform
porpoise
predator
printer
remind
sending
soldiers
stood
studying
success
thrown
trampoline
umbrella
understood
wipe
yells
zippo
zombies
##ach
##ain
##gy
##ised
##ments
##tive
added
aid
boxing
buzz
campaign
carrots
certain
cheaper
comic
electrician
expecting
fancy
fingering
garage
haha
information
knowing
largest
leaf
matey
mentally
panties
pea
poem
pok
private
prostate
raw
remains
replace
scary
schools
searching
shovel
sides
silver
slap
sock
stabbed
steven
sucked
taco
teen
thot
thousand
thrones
triangle
virus
walls
##em
##gs
##ster
address
alike
allah
appointment
barely
belly
camel
carpenter
charity
colour
consuming
cooked
cried
cube
decision
drone
dudes
dwayne
erectile
fbi
fool
former
friendly
fungi
genders
global
hairy
healthy
helps
hippie
ignorance
instrument
islam
laughter
lightning
mall
mamma
marathon
memes
minister
nope
parts
peacefully
population
scares
schumer
ships
sort
speaking
storm
temperature
timing
vampires
whales
##bed
##gle
##istic
##lo
##ves
##zed
accept
accidents
alot
anus
autocorrect
basic
bodies
cans
certainly
classic
cloud
collection
committed
deleted
desert
doesnt
drives
dublin
dust
eminem
fisherman
honor
incest
israel
kelly
naan
nbsp
neigh
ocd
periods
pickup
proctologist
produce
pterodactyl
rough
snail
tide
tied
tool
upside
user
vodka
weapon
wide
wings
yard
##ded
##ice
##no
##ore
##son
##time
##va
17
adolf
airline
alternative
anniversary
argon
billy
booty
bullshit
calculus
circumcise
considering
cookie
disappeared
divers
drowned
enemy
engine
eric
ethiopian
fog
funniest
gates
goldfish
grand
h2o
herbivore
hoes
jumping
lawn
loose
luck
mathematicians
mid
moves
naughty
novel
obvious
pikachu
planning
points
posting
proof
raped
received
release
reposted
rhino
sandwiches
satan
slogan
snowballs
spring
tailor
tampons
tyson
##art
##li
##ul
absolute
arts
assault
cabinet
civil
cookies
coup
crossed
dancing
director
education
empire
floyd
guilty
honestly
hormone
intelligence
meme
messed
mute
noah
offended
panda
peanuts
peeing
phrase
rose
rude
salesman
saturday
staring
stayed
survived
taxes
theft
triggered
tzu
vaxxers
voted
##hh
##ians
##ire
##ley
##ray
51
above
basically
beard
bikes
billion
bored
brake
bugs
camouflage
characters
checked
chew
chip
clause
climb
doll
drew
eclipse
failure
fried
gays
grown
hebrews
hoping
incomplete
jared
license
liquid
lpt
luggage
machines
mailman
managed
mcdonalds
mostly
nails
ninja
nipples
nobel
object
oedipus
operation
packed
pervert
pornstar
presidency
prove
quote
rabbits
shakespeare
shall
shoulders
spotted
statue
sword
thailand
thick
usb
vax
vladimir
weakness
yogurt
##ak
##bo
##day
##her
##hi
##its
##nder
##q
##tle
00
2nd
adhd
anime
appreciate
arse
aunt
bakery
bitcoin
boom
coworker
delicious
dental
disaster
dogg
downs
drops
element
employees
enters
essay
excellent
fuckin
goodbye
hare
headache
homework
hop
houston
hulk
july
lamb
lil
london
marvel
mayo
meals
mirrors
pickle
poke
reception
rent
ridiculous
rob
robber
rolls
ruin
scout
sentences
shih
siri
spoken
string
transplant
uncles
unique
vehicle
victim
vietnamese
virgins
waits
waves
yoga
##00
##ces
##ied
##ition
##ologist
##ti
##ular
##ward
arthur
atmosphere
attached
barbie
chain
chameleon
charles
ck
coat
consider
cotton
crossing
cycle
dolls
drum
elf
engineers
events
evidence
faith
flower
focus
fortnite
fourth
fowl
gore
happiness
illness
infinity
involved
italy
janitor
kidney
legged
liberal
lock
lottery
matches
maths
mime
mode
modern
monopoly
mood
mountains
oxygen
photos
pill
planes
popcorn
reich
roulette
schwarzenegger
score
screwed
seizure
sexist
sheet
shells
supporter
tender
terms
tour
transparent
trial
twelve
unit
veteran
watson
whoops
willing
witness
##cs
##ees
##fish
##ix
##light
##min
##ri
##tte
2019
ages
anxiety
assume
auschwitz
bacteria
bagel
barium
bark
beginning
bench
bison
blond
boomer
braille
bros
brunette
bullets
calm
canoe
checks
coconut
coz
cunts
currency
curry
dated
dubai
electron
false
fi
files
fools
frogs
gluten
goose
grows
guide
handsome
harvey
hiv
hood
indecisive
insecure
kardashian
kong
kurt
latest
league
mermaid
monkeys
necrophiliac
neutrality
noodle
nuns
oscar
philosopher
philosophy
plagiarism
preferred
races
relative
repeat
romantic
ruler
shaped
shellfish
shooter
sight
skinny
speaks
staff
tests
thousands
tss
tulips
underwater
value
videos
warming
wire
worm
##ag
##ca
##can
##ha
##lon
##mi
##sa
1st
abu
alarm
algebra
anne
armies
australians
balloon
billionaire
borrow
cares
century
cheated
circles
colony
coma
cremated
developed
eastern
emergency
fetus
fist
fixed
flip
float
hacked
hooves
hose
inventor
investigator
italians
jehovah
jones
keys
masochist
millionaire
monica
ms
murdered
musicians
necrophilia
nowadays
objects
officers
paranoid
pew
pony
raised
safety
saggy
shady
shoots
spy
stark
steel
streets
stuffed
switched
tend
toilets
unvaccinated
womb
wong
##ber
##berg
##box
##ff
##gers
##oid
##orn
##rk
##tory
300
allergic
allow
altar
autism
banker
bum
carpet
challenged
chose
christians
claims
comedians
copper
crocodile
daniels
deserve
destroy
device
directions
emotional
error
exhausted
feathers
floats
folks
freedom
headlines
helped
hereditary
hilarious
hooked
horror
hunt
ikea
islamic
jfk
ketchup
lentil
louis
martial
measure
muffin
obsession
owned
package
painting
patch
photo
products
property
regularly
romans
sadist
seamen
shouting
species
spoiler
strike
supermarket
supreme
sushi
teaching
thin
tres
users
vaccinate
visiting
vitamin
wanting
wayne
wiped
##ction
##ify
##ker
##law
##nation
##ney
##ology
##ters
##ub
##uring
##ute
##vin
ability
among
aww
bitter
bless
buildings
buns
cheek
chicks
clicked
confucius
cough
desk
doo
dragon
easiest
eyebrows
handy
hangs
hardware
homo
ideas
indians
instructor
intense
introduce
kanye
knowledge
lake
landed
lied
lizard
lover
makeup
mint
monday
mop
mothers
murderer
neil
nude
optimist
oranges
panther
policy
poof
potential
pricks
programming
protection
pudding
racism
raisin
role
shampoo
slice
sniper
spelled
struck
sum
tan
tasted
throws
tickets
treasure
violent
waitress
ww2
zone
##ass
##bly
##ics
##inated
##ining
##ow
##ration
##rous
##ware
0k
2000
22
23
3rd
affair
agreed
association
bipolar
blanket
breathe
caesar
caitlyn
candidate
cardi
caused
cemetery
cena
challenge
charges
choked
choking
clocks
coach
comma
concrete
conservative
convince
cracking
despite
diabetes
dictator
disneyland
ducked
duty
earthers
exchange
expected
explosive
feelings
forrest
forth
gloves
gump
hammer
hellen
hindsight
ii
intelligent
joker
lame
lamp
mud
noose
nowhere
opportunity
path
pessimist
prints
prophet
pump
range
remembered
salmon
san
separate
sheets
spin
struggle
taxi
teenager
turd
volume
vowel
witnesses
##ans
##aries
##ator
##ea
##form
##ig
##ino
##lk
##room
##tors
##tt
##ude
32
72
anger
anyways
arrow
assistant
author
axe
block
boats
brains
breed
brush
cancelled
chili
chill
chronic
coin
companies
couples
daniel
dealing
deck
developer
dwarves
egypt
elderly
englishman
evening
expert
faces
ferrari
foreskin
frenchman
groups
hen
herd
ing
instagram
joking
karate
kicking
languages
lsd
method
michigan
millennial
moan
mount
mustard
odds
partners
peas
pimp
protect
reminds
replaced
seasoned
semi
shave
shorter
shredded
sleevies
slutty
speeding
surrounded
sweater
talked
teenagers
therapy
toothbrush
trailer
trainer
traveler
trigger
trunk
udder
vietnam
voting
william
winner
woof
##ap
##atic
##dies
##ght
##iac
##ily
##ings
##ius
##keeper
##lated
##lin
##sm
##ulate
abraham
aged
alley
bat
beaver
boeing
boxer
carbon
champion
chop
competitive
corny
crabs
damage
debt
dill
extrapolate
fairy
fallout
fathers
foods
fork
gambling
grandad
han
idk
impasta
invest
jeffrey
leather
link
loaf
management
mein
menu
millennials
mini
mummy
nap
nature
pickpocket
playground
poland
pretend
puppy
reader
responsible
robert
sedan
seoul
sharks
shift
sith
slightly
snap
spare
spiders
steam
sticking
stones
stores
strings
suggested
theres
trophy
ukraine
underground
whom
wont
##cated
##cious
##ell
##els
##ination
##ited
##ked
##omy
##ris
##sed
##tch
accent
actors
akbar
angle
apply
astley
astronauts
babe
beverage
blank
bombers
bury
calories
candles
causes
checking
chimney
compare
ctrl
curious
dirt
dolphins
donut
donuts
drawing
driveway
dunno
ebay
episode
equipment
er
fifty
forgotten
guitarist
installed
interrupting
letting
maker
medal
melania
micro
monsters
moth
nfl
nickelback
nintendo
noodles
omg
operator
ow
pepsi
performance
pigeons
plenty
pooh
prescription
prevent
production
punched
pushing
rappers
readers
rednecks
reply
restroom
robots
sales
saving
schizophrenic
secrets
shirts
slaves
smokes
smooth
spoon
stab
statistics
steals
stiff
suspect
target
terminator
touches
tub
vegas
welsh
wheat
wolf
woody
##bar
##book
##logy
##ory
##tar
##tin
##za
75
98
adele
alcoholics
alert
anna
anonymous
attracted
beaten
began
believes
bolts
boston
boxes
cap
capitalism
careful
ceremony
coast
confusing
contact
crawling
crew
crossfit
cunning
dc
defend
defense
democrats
design
discover
disgusting
effect
el
exact
explosion
fucker
gain
grip
hamburger
haunted
host
hunting
ignore
illegally
inner
insult
invention
invite
jose
lamborghini
latin
limbo
lip
lipstick
lovers
mac
merry
morgue
motto
nasty
noses
notre
official
oj
op
palm
panic
papa
parallel
picking
pin
pineapple
plain
planets
plans
pockets
pornhub
porno
prices
rated
returned
rolex
savings
scrabble
scratch
seafood
server
skeletons
smash
spine
spit
squared
strawberry
swiss
tech
television
therefore
tornado
tumblr
upvotes
vegetarians
visits
wakes
walrus
xanax
##ably
##cher
##ect
##fe
##he
##hop
##inate
##ini
##izer
##ni
##rated
##sexual
##ud
##uff
##wood
##zing
adding
alaska
allahu
although
annoyed
anorexic
asia
attempt
attempted
awareness
bagels
battered
bisexual
blowjobs
bonus
bow
brie
bulbs
burns
ceo
cheetah
cheetahs
childhood
classical
convinced
cult
dame
dancer
delivered
destroyed
dime
dwarfs
earther
effort
environment
execution
fellow
fighter
fruits
gaming
gray
guinness
hes
homes
hotdog
incredible
inflation
insect
jaw
jon
junk
maid
map
matthew
medication
melon
mice
minecraft
muscles
nelson
overnight
pages
papers
paraplegic
paw
pour
prayer
progress
purpose
ramsey
rates
ren
rod
runny
scuba
shore
sinking
skills
slapped
spiderman
stroganoff
suspicious
theater
thieves
tickle
tons
topic
tripped
unlike
unthinkable
vaccinated
valley
vasectomy
weasel
workout
##cal
##down
##ex
##ho
##ient
##lish
##list
##load
##ok
##post
##rating
##ses
##try
##uck
##unt
##vation
##well
##zer
activity
adults
apathy
artificial
avengers
bait
barack
bdsm
beatles
begins
belong
biology
bother
boxers
bully
buys
candle
carlos
casket
celebrity
cheer
chicago
cider
claim
coincidence
colored
crackers
deliver
dislike
divide
dropping
drums
earthquake
effective
eleven
eternal
explaining
facing
fantastic
flash
flush
freak
giggles
handjob
hawaiian
hay
height
hertz
hilary
identity
idiots
inappropriate
jr
kinder
lab
larger
lean
lemon
lifeguard
lisp
loco
mainstream
motherfucker
mushrooms
neutron
neverlands
noble
officially
originally
paddy
pai
parkinson
paycheck
phd
pillows
pilots
pleasure
poison
powerful
pretending
prick
proposed
punishment
puzzle
racecar
raining
rally
recycle
refuses
regret
reports
reposting
rifle
riposte
risk
rocket
secretary
simpson
slave
slide
smoked
spoilers
strikes
sunglasses
supplies
suppose
telephone
theresa
tim
toothpaste
tunnel
unable
upvote
voices
waking
windshield
wishes
wonderwall
##aa
##als
##bling
##ening
##ently
##ew
##ican
##ina
##ior
##ization
##ops
##ph
##phone
##rr
##sion
##ulation
##ung
##ust
##vant
28
admitted
aloha
apparent
appear
archaeologist
artists
backyard
badly
bestiality
blacksmith
blast
bottles
broccoli
bumped
burgers
chemicals
cia
coins
concerned
conductor
corduroy
crow
cruise
cuts
darling
defeat
dentists
described
doubt
drawn
duh
edward
elevators
ewe
exploded
fats
fiction
flavor
flint
funnier
gamer
hadn
heat
hollywood
horn
icy
invade
jamal
jolly
jumper
june
kinky
kylo
leading
lemons
lewinsky
logic
loving
massage
material
midlife
mississippi
misunderstood
moms
mozart
nascar
nerd
nickel
painted
passes
paws
pharaoh
photon
physical
pornstars
previous
raising
reads
realise
reaper
recommend
redhead
repair
resistance
respond
restaurants
revolution
ripped
rolled
sarah
secretly
servers
signed
sinks
skywalker
southern
spending
spirits
standard
sue
survey
terror
thomas
touching
tourist
treatment
walken
worlds
##10
##aking
##ative
##bble
##bby
##be
##bic
##bit
##door
##ella
##fire
##gger
##gie
##gon
##ick
##ising
##itation
##mies
##mm
##nut
##res
##rry
##rts
##sian
##sive
##tone
##uit
##ula
27
5th
aaron
addicts
albert
angel
arrived
atlantic
attendant
begin
believed
benefits
boomerangs
bubbles
cactus
cage
calculator
cardboard
cashew
cave
chamber
charlie
cherry
coal
colon
cracked
creating
crimea
crushed
cumming
disagree
doggy
dracula
drake
dyed
emails
eskimo
facts
fatty
fencing
floating
freudian
furry
gagged
guts
hawaii
highly
holidays
huh
imagination
impression
install
introduced
knights
lesson
litter
lumberjack
medusa
mickey
mission
mockingbird
motorcycle
muhammad
notes
pics
pinocchio
pitch
poetry
poorly
potassium
pregnancy
presidents
prisoner
queue
ram
reached
remain
roberto
ruins
serving
shes
shitzu
slipped
smarter
smelled
sofa
stud
supply
swedish
synonym
taller
technically
texting
theorists
tissue
transformer
unattractive
update
violin
wan
watt
whilst
whitney
writer
wtf
youth
##ates
##bie
##cent
##con
##di
##ein
##ents
##ep
##ham
##ically
##ja
##ken
##lation
##lly
##mail
##ners
##oned
##our
##pm
##some
##stone
##tered
##tis
##vert
1080p
365
areas
assaulted
banging
barista
baroque
bleach
bodybuilder
boiled
bud
casino
choir
clapton
cobain
coffins
communists
complained
composer
conditioner
confusion
constant
cups
curiosity
daughters
dawned
decides
designer
dhabi
dial
diary
donor
drill
ethiopia
explains
eyesight
fanta
fewer
fireworks
frustrated
fur
geese
graveyard
habits
harassment
heavier
hunger
image
impress
lap
led
mans
matt
mosquitoes
museum
naming
needless
normally
nudes
oak
opinions
optometrist
orchestra
orgasms
orphan
oyster
pastor
pastry
perfume
poisoning
pokey
psychologist
rage
ramen
reeves
remembers
royal
ruff
sally
seagulls
searched
shotgun
socialist
sounded
spain
steering
sticker
sweat
symbol
tearable
terrified
tommy
travelers
treats
trumpet
tune
turtles
ultimate
unicorn
vibrator
ward
weighs
##ache
##bag
##ches
##dle
##face
##gh
##lash
##lm
##lug
##onic
##ony
##rant
##read
##ties
##ugh
##using
##vy
access
actual
afghanistan
aggressive
alan
alexa
ali
apologize
autistic
brag
browsing
builder
cab
carr
chairs
chances
circumcised
classes
cod
cola
complains
concept
consent
contains
cracker
crashes
dandruff
dementia
detroit
disappointing
disappointment
discount
electrical
elton
enzyme
esteem
extinct
extreme
festival
financial
finishing
fo
foreign
gathering
genre
globe
graduated
grizzly
grumpy
hall
hogwarts
hokey
holmes
hopefully
hundreds
israeli
jalape
kennedy
kings
liver
llama
loaded
malone
mole
mri
napoleon
nigerian
pakistani
parked
passing
patriots
patty
pause
pedophiles
pencils
pete
pimple
pipe
plug
pm
pms
porch
port
prepared
process
pronounced
propose
racing
react
recycled
remote
result
revenge
rowling
saint
salted
seats
selfish
senate
september
sequel
severe
shades
shares
shouts
sikh
smallest
sole
somehow
spends
squad
stink
stretch
succeed
survives
sweden
tag
teddy
termite
thread
tools
vendor
voldemort
whack
winnie
##ade
##ane
##ations
##ats
##au
##away
##cate
##gar
##gled
##gus
##hood
##iding
##ight
##itch
##lan
##lic
##mark
##mit
##mp
##nn
##ooo
##osis
##pose
##posing
##ria
##rus
##tant
##tical
##tric
##ture
##uce
##ump
##used
##uss
##wer
##ws
##yo
35
4th
52
active
alzheimers
amnesia
attend
attended
attire
attitude
bale
barrel
beast
bing
blocked
bono
bringing
butthole
butts
byte
caribbean
cellar
cheddar
chemical
chemists
choke
christianity
clouds
combine
conference
cons
corners
cousins
crocs
crushing
crystal
danger
denial
diapers
diving
dvd
eel
efficient
ego
erections
et
explode
finland
fitness
fort
fry
fsh
fully
fuzzy
gaga
gary
gear
gifts
grim
gummy
gypsy
halfway
hurry
identical
incredibly
insane
invent
isnt
item
ive
jealous
jerking
jersey
kin
kitten
labracadabrador
laden
laxatives
leia
limit
los
marine
meaningless
meteor
metric
minded
miserable
nacho
nba
nick
nightmare
nom
norway
nsa
numerals
opener
organize
overweight
parker
peta
polite
prepare
project
properly
protest
pubic
punk
que
rehab
reviews
ron
rum
rush
sam
sandy
scare
senior
serves
shaving
shed
shepherd
shocking
shootings
shucks
snatches
sphere
spilled
spoke
sting
suffered
swam
testing
thursday
tick
tiers
toupee
traditional
trains
uh
username
vatican
votes
waved
weapons
weinstein
whisk
whites
willie
wrestling
xd
##ban
##case
##cast
##ef
##ened
##etic
##ets
##hhhh
##hile
##hy
##iate
##imate
##las
##lla
##lock
##mic
##mon
##nch
##ogue
##ories
##pies
##play
##rrr
##rum
##sis
##table
##the
##uke
##ural
##wear
acceptable
accountant
afterwards
ai
aisle
answering
appropriate
ark
armor
armstrong
au
available
baa
bake
banks
bare
barn
batmobile
blacks
boobies
buttons
bye
cabbage
catches
cattle
command
corpse
couldnt
cowboys
crust
dahmer
daisy
deals
destruction
dew
dodge
downhill
embarrassing
entendre
expects
experiment
experts
explorer
facial
failing
faux
feature
filling
flamingo
flintstones
frankenstein
funerals
geography
gladiator
goal
grapes
hd
immature
innocent
jazz
juggler
karl
keanu
khan
legally
lessons
limp
loser
lube
mates
mcconaughey
meow
miscarriage
missile
mitch
morgan
neckbeard
newest
operate
organic
osama
owns
paedophile
painful
pancakes
peed
peel
peeping
piggy
powers
profit
prom
prophets
punchlines
pupils
rainbow
rarely
refer
remarkable
resisting
review
runner
sailor
schrodinger
scotland
screamed
screws
seaweed
setting
shakes
sins
slam
sleeve
sons
sponge
squirrels
statement
stress
stressed
surely
surprising
swallowing
thirty
ting
tires
titled
toot
toss
travelling
travels
tumor
uber
uncomfortable
useful
velcro
werewolf
wok
zipper
##ads
##all
##ast
##berries
##but
##cation
##cide
##cock
##een
##ens
##gies
##ional
##lake
##lessly
##non
##posed
##proof
##rates
##rial
##so
##tain
##uel
##ugs
##ui
##ulator
##wn
68
ac
accepted
administration
adoption
ajit
anakin
andy
angeles
attempts
autobiography
bae
bathtub
beside
blunt
boards
bombs
bragging
buddha
busted
cd
chapter
charging
chewbacca
chiropractor
client
comfortable
commas
compared
concentrate
coop
counted
customs
decent
def
denied
descending
determine
diamond
discussing
duct
dung
dutch
elves
enjoyed
enterprise
executed
existence
exorcist
fights
fitting
followed
formula
fred
freeze
gardener
gin
handicapped
headphones
hedgehog
herbs
hernandez
hillbilly
hippy
hotline
hottest
inauguration
injured
injuries
irrational
itchy
jet
jill
jurassic
kingdom
kleptomaniac
lemonade
lennon
lgbt
loans
logan
lowest
marks
matching
mercury
mixing
mods
moose
muffins
network
newborn
nor
obesity
oklahoma
oldest
overdose
pa
pairs
pakistan
paranoia
pavlov
phobia
pit
pixar
politically
promise
psychology
pyramid
quiz
rang
rat
razor
reported
retired
returns
rhyme
robbery
rooms
ross
routine
scotch
sends
services
sexiest
shy
sized
sketchy
snot
solved
straw
strength
supremacist
tale
talent
tanks
tap
tennessee
thigh
thirsty
toucan
treated
treating
tupperware
typo
unexpected
unionized
ur
virginia
wank
watermelon
wee
whisky
wi
witches
yea
##amo
##ath
##che
##cies
##dam
##ert
##gi
##hal
##han
##hhh
##ility
##ished
##ival
##late
##lets
##logist
##matic
##nal
##nist
##nor
##oids
##oooo
##oper
##owed
##pers
##rds
##ree
##rm
##row
##shed
##sman
##tal
##tos
##uth
##water
##woman
##ys
2b
accurate
airplanes
ajar
allergy
arrive
atheists
athlete
atm
bastards
bent
bikini
bladder
bleeding
bo
brady
c4
cable
camps
catscan
chat
chopped
chord
citizens
claimed
claws
clip
combined
confidence
convicted
correctly
credits
dare
december
dip
doorbell
dot
drizzle
enjoys
exclaimed
fallen
fantasy
february
feces
firm
flour
fogle
follows
font
forwards
fund
gangster
gentleman
goodyear
grain
hackers
headline
homophobic
humping
hunter
impersonating
inclination
infinite
injury
insert
instantly
instruments
items
january
jumps
keeper
khaled
kilograms
kissing
kleptomaniacs
knead
knocking
lays
lions
magical
majority
mask
massacre
masturbated
matters
mature
max
minors
mug
mugged
multiply
needle
nile
obi
occasionally
offering
options
organization
organized
origami
oui
pearl
percent
phelps
phoned
photographer
pic
pissing
planned
polio
pond
pounder
privacy
racists
receding
reggae
reindeer
reunion
rib
rihanna
riot
roller
sailors
sarcasm
scandal
scandinavian
scariest
scents
shorts
shrek
shrimp
signals
skydiver
snails
snapped
sneakers
snowwoman
stalking
stare
stares
strongest
struggling
sudden
surface
suspected
suspense
swift
symptoms
syria
thumb
touchy
tribe
tricks
trudeau
tube
twist
understanding
unemployment
usual
vaxx
via
wax
wednesday
weekends
wherever
whores
wiener
writes
wwii
www
##acy
##aging
##ara
##ardy
##bles
##boy
##ception
##ci
##cular
##dit
##eur
##fy
##gb
##ien
##if
##ik
##imated
##ip
##ired
##lian
##lick
##lished
##master
##mist
##mologist
##night
##ola
##ologists
##omaniac
##oni
##pan
##point
##pool
##pr
##right
##ship
##side
##teen
##ther
##town
##tty
##uh
##uma
##ux
##vs
##we
##ya
666
aborted
abortions
acts
agents
alpha
alter
annoy
anthony
applied
arabian
ashamed
athletes
attract
bachelor
baking
balanced
balloons
bathrooms
beep
bingo
birthdays
boogie
bricks
bun
buzzfeed
carrie
castle
chewing
chromosome
circumference
citizen
clerk
clever
cloning
cocks
collapsed
collecting
communicate
compete
conclusions
congratulations
crappy
creator
creature
cruz
cums
dale
dan
darkness
declared
delete
democrat
deodorant
diabetic
dis
dong
drain
dreamt
dye
eileen
elections
elvis
engineering
entering
entirely
exists
exit
fascist
films
firefighter
fitzpatrick
flood
fought
framed
frankly
frisbee
fuckers
function
gag
gap
gears
generally
genetic
geometry
gnome
gogh
grades
graduate
grater
grounded
guards
hardened
harsh
hearts
hebrew
hollow
hong
hoot
iceberg
ideal
improve
include
income
inquisition
insects
insists
internal
ion
irwin
islands
kidnapped
kneaded
kraft
labor
landing
le
lend
literature
loudly
lubricant
mathematics
mercedes
messages
meta
milking
miracle
moron
nearby
neo
ness
neutral
ninjas
ocelot
organs
orphanage
owls
parade
pardon
peach
periodic
perverted
pets
pigeon
popped
prisoners
promised
purchase
pussies
quickest
ranch
rectum
reminded
resort
rivers
riveting
rome
rubbit
russell
scooby
screwing
se
sets
sew
shelter
shown
sigh
sine
sings
skip
skirt
smashed
smelly
smiles
snakes
snowflakes
spill
starve
staying
stove
strangers
stream
tater
tent
tested
thankfully
theatre
threatened
ties
toddler
trek
trousers
trucks
turnip
u2
ussr
wisdom
withers
wonderful
##af
##ale
##alist
##aurus
##bate
##bi
##cessary
##cker
##cum
##dor
##duct
##ean
##eep
##ese
##ez
##fer
##front
##graphic
##gust
##ials
##iciency
##ides
##kes
##kie
##ku
##lers
##mal
##mia
##nc
##nda
##od
##otic
##ox
##pped
##rade
##rest
##rre
##ssion
##uation
##uffs
##uise
##uist
##ult
##val
##work
##yer
##zone
##zzle
1forrest1
26
3d
advertising
ape
awards
bezos
bits
bombing
bouncer
bowel
brazil
bubble
bushes
butterfly
carrion
centipede
centre
chief
cocky
cologne
conditions
conjoined
container
courage
coworkers
cremation
cumference
dash
dawn
designed
diarrhoea
digital
diner
disco
donated
donating
donation
dresses
elementary
elope
exposure
fashion
females
figures
fingered
fixing
floss
followers
foreplay
forgive
foul
fuel
gasoline
gig
glitter
grasshopper
hacker
hardly
heading
helicopter
heroine
herpes
hidden
hippopotamus
hippos
homer
hospitals
https
hugh
impeach
increase
increases
inmates
instance
investigation
irishmen
ish
jean
jerky
jogging
joining
kilts
kissed
lasts
launch
laying
lbs
length
limited
location
marco
marketing
marley
masturbates
mattress
midnight
minds
mob
moral
mormon
moscow
motive
mystery
mythology
newly
niece
opera
outta
overheard
pdf
ph
phil
pho
pistol
pods
poked
pooping
powder
praying
promptly
puberty
punctuation
radioactive
recovering
rename
rides
rises
roads
roasted
rumor
ryan
sample
scheme
seed
shadow
shops
skips
slim
sober
sooner
sour
soy
spaghetto
spies
stan
stared
stronger
stupidest
sued
supremacists
tales
taylor
temple
theme
thickens
thus
tone
towels
tuck
upper
urge
vending
volcano
weiner
willis
wongs
xi
zebra
##45
##ab
##aches
##ai
##ana
##and
##are
##berry
##bert
##bra
##burg
##ciation
##cription
##cted
##ctic
##ctor
##des
##eal
##field
##ges
##hs
##hu
##iable
##izes
##jokes
##lifting
##lity
##ller
##long
##mates
##mme
##nic
##oe
##oke
##pt
##race
##racy
##rait
##ress
##screen
##stic
##storm
##thy
##top
##ually
##uction
##une
##ura
##urs
##via
##wife
31
420
49
80s
85
advantage
afternoon
alpaca
antennas
approach
argue
arkansas
attorney
aw
backed
badge
baguette
bakers
bankrupt
bbc
bbq
bells
bends
benedict
beyond
bilingual
blackjack
blessed
boomers
booth
branch
bungee
burglar
burst
caps
cement
chased
churches
cnn
cocktail
collar
collect
commonly
comparing
compulsive
conditioning
contract
covering
cowgirl
creepy
crimes
cs
curtains
dandelion
dang
daylight
descartes
develop
devices
diamonds
digger
discuss
dragons
drama
dreamed
dumbass
dyslexics
earnhardt
electrons
embarrassed
emperor
envelope
equality
excel
executioner
faced
filthy
finals
forces
fractions
genitals
gif
goods
goofy
hammered
handing
happening
happily
haram
headed
hears
hobbit
homie
hoo
http
hump
humpty
ihop
incorrectly
indiana
ink
instructions
intercourse
ivanka
jacking
jamaica
joseph
jury
karen
kittens
lannister
leads
legends
lego
lice
loads
loki
lovely
luther
mashed
meets
mermaids
meter
micheal
millenials
missionary
molested
molester
nephew
nickleback
nightclub
norse
oink
ooh
orlando
oscillate
otter
owe
performed
plural
pooped
produces
proved
provide
ps4
psychiatrists
python
quantum
rave
rearrange
receptionist
recipe
relax
require
resist
retard
ronald
ruled
rushed
scissor
scrambled
seize
sentenced
shade
shortest
shoutout
shove
silicon
singles
smartest
snacks
snapchat
sneak
speaker
specific
spock
spots
squid
standards
starring
starving
statistician
stripes
strippers
studio
suffers
suits
sweeping
teaches
tear
tomatoes
tortilla
traced
transportation
ukrainian
undercover
understands
unhappy
unicycle
unscrew
updated
vaccines
vu
walkie
wasted
whim
whistle
whos
wick
wookie
wreck
wrist
##ack
##air
##alk
##ame
##ami
##amy
##ars
##car
##ching
##cia
##cts
##dd
##die
##ducted
##ection
##erson
##fully
##gan
##hn
##holes
##hore
##ica
##ided
##iel
##iff
##ign
##ils
##ines
##iser
##itated
##jo
##laming
##lating
##lbs
##lub
##lving
##mas
##mission
##mn
##nts
##ocks
##oi
##pressed
##rass
##rick
##rid
##rily
##roll
##rse
##rtal
##ser
##sia
##sp
##tel
##tist
##tivity
##tual
##uing
##unk
##ured
##vent
##verted
##wat
##what
150
400
48
90s
95
abroad
adjective
android
anthem
anytime
apocalypse
appears
aquarium
ar
arguments
arr
ashes
asses
atomic
basket
beetle
bend
bieber
boots
bout
bowie
bullied
bust
calf
cane
cardiac
circumcisions
closing
clue
collector
combination
commercial
conclusion
connect
cooler
covers
creates
cubes
custody
dashboard
deferens
deli
delivers
deprecating
difficulty
discrimination
discussion
dive
doe
doughnuts
draft
drunken
dumping
edison
effects
ejaculate
elbow
enemies
energizer
enjoying
equivalent
ernie
examine
experienced
fam
familiar
favor
fe
featuring
feminism
fibonacci
fighters
fires
flakes
floors
friction
gamers
gene
genocide
geologist
goats
gps
granny
gravitational
groan
groove
gynaecologist
hairdresser
hamster
harriet
hint
hippies
hitlers
hooters
hue
husbands
illiterate
improved
innuendo
inspector
itheberg
joints
jonestown
joy
kidneys
kirk
kisses
knives
koala
lands
lane
larry
las
lasted
laxative
lifted
lighting
liner
livid
males
marshmallow
mayonnaise
medieval
membership
meters
mi
michelle
minnie
minority
mints
mmm
multi
murphy
nightmares
nights
nipple
nokia
northern
oasis
ohm
ol
option
ordering
owners
paragraph
parsley
passenger
passive
patience
penguins
phase
pilgrims
pod
poles
possibly
prague
prisons
procrastinating
prostitution
psycho
pubes
pure
quadriplegic
radical
ramadan
randomly
rash
realizing
recognize
recognized
referred
register
rhythm
rio
rising
roots
rover
rubbish
salon
sandals
sausages
scott
screwdriver
seatbelt
selfie
sergeant
session
settle
siblings
signal
sixth
snowden
snowmen
sonic
spam
specifically
spinner
spoiled
spouse
staircase
stalker
status
stinky
storage
stranded
swallows
tasteless
teens
temper
tends
thots
tin
titillate
tortoise
toyota
travellers
tubman
tweet
universal
unto
upstairs
vans
vas
verb
vice
village
villain
volunteer
warned
washed
weddings
wheelchairs
whip
widow
willy
wimbledon
wounds
yep
zip
##ac
##ading
##althy
##asing
##aving
##aw
##beat
##bee
##bro
##ced
##cising
##den
##edly
##eer
##eg
##ency
##gling
##iage
##ially
##iation
##ibility
##ician
##ider
##ification
##iii
##ister
##ital
##itude
##lap
##laughter
##lay
##loth
##mine
##nes
##nuts
##oot
##oth
##oy
##pin
##po
##ptor
##quet
##rage
##ran
##rp
##sta
##sure
##tern
##tly
##ught
##uncing
##vil
##wi
##wl
##xious
##ye
##yr
##zzy
101
4k
89
999
accordion
agency
ahh
alcoholism
alexander
alligators
anagram
anchor
announcement
annual
arabs
aroused
arrives
arrr
aspirin
assassin
atleast
avocado
bats
beet
bloke
blower
booked
boot
booze
boulder
bound
brief
browser
bruised
bukkake
bullies
bump
bumps
businessman
cannibalism
carefully
cargo
causing
cemeteries
cheeks
chihuahua
chuckle
cleaners
clenches
closes
coca
cole
columbus
comb
commitment
committing
compass
condiment
contacts
context
continue
conversations
coordination
corrected
creative
cricket
cries
cupboard
curves
dealers
derivative
details
dicaprio
ding
dipping
disgusted
diss
download
dried
dumpty
earn
embrace
employed
endgame
engaged
engagement
epipen
erotic
escort
estate
executive
families
fil
fisher
flavored
fold
forty
fraud
gee
gifted
giveaway
gouda
granddad
grill
groom
guest
hack
hanger
heck
hee
heels
hehe
henry
herb
higgs
hiring
homosexuals
humerus
hunch
hungary
hurricanes
idaho
immigration
inbred
independent
insist
insomnia
instigated
interrupt
introducing
inuit
iraqi
irma
jane
jay
journalist
junkie
klingons
kool
lama
lantern
latter
lenin
lent
liam
liars
lifts
lightbulbs
limbs
linkin
lists
luigi
lyrics
magicians
mainly
manage
mango
marriages
marries
mats
mayor
mechanics
milkshake
moby
moments
monks
mouths
nerds
nicely
norwegian
omelette
painter
pane
pays
permission
petrol
physicists
picks
pigment
pillsbury
ping
plates
playboy
porsche
possession
pothead
poultry
practicing
prey
primary
print
promoted
punish
qualified
quietly
ra
ranger
rating
reeve
relatives
reporter
reproduction
required
rescue
resell
revolve
rhetorical
riddle
romance
rushmore
safeway
sank
sans
satisfied
saves
seals
seashells
sharing
sheeran
shipping
skyrim
sleepy
smack
smelling
smiling
spices
sprite
stapled
stationary
stormtrooper
strokes
successfully
suggest
suitcase
supporting
swine
switching
terrifying
testicle
throughout
thumbs
tracks
trail
underpants
ungrateful
unstable
upcoming
vat
views
waldo
wales
washer
whine
wiping
wished
wishing
wool
worship
wright
writers
ye
yolk
youtuber
zodiac
##11
##80
##agon
##ault
##ave
##ax
##bies
##bon
##bus
##cise
##cot
##cribe
##cture
##ddle
##dia
##eers
##enna
##ering
##ernity
##fo
##fu
##gestion
##got
##iant
##ibly
##icle
##ii
##im
##iring
##irs
##jected
##kies
##kle
##lad
##liest
##lls
##logical
##losure
##mb
##mes
##mitted
##mous
##nding
##nel
##nis
##nity
##nsion
##omic
##oney
##ool
##oom
##ooooo
##ord
##orse
##oting
##ov
##oving
##pical
##ple
##port
##rain
##rey
##ribute
##rier
##rris
##rth
##sted
##tics
##tine
##tomy
##uals
##uge
##ulations
##ule
##unce
##ury
##ution
##visor
##walking
##zi
##zy
34
47
6th
88
accounts
actress
advanced
agreement
aladdin
allows
almonds
ama
amputated
ankle
arabic
asthma
aware
baiter
bands
banner
basis
bedtime
beets
biting
blamed
bleeds
boarding
borrowed
bran
bras
brian
brighter
brit
brits
browns
budget
buoyant
burial
cannabis
carved
caucasian
chopping
clay
climber
climbing
colleague
colorblind
coloring
conceived
concussion
contain
convict
cooks
coolest
cord
craigslist
crashing
crooked
crowbar
crusher
cuba
cured
dat
dav
decisions
decorations
delighted
demon
dice
disappoint
disqualified
doodle
dumpster
egyptians
electronic
elements
elephino
elizabeth
emotionally
erect
everest
exes
exposed
eyelids
fashioned
fee
fences
fever
fidel
fifteen
findings
finishes
fitzgerald
flock
floppy
foreigner
fortunately
fraction
francis
frat
freaking
frequently
frying
furries
gator
gentlemen
ghostbusters
giraffes
godzilla
graffiti
grandson
granite
groceries
groundbreaking
hahaha
haiku
hans
hats
heated
heroes
hiroshima
hoarse
honesty
hr
hummus
hurty
ian
icu
impact
impeached
impressed
included
incorrect
instant
introverts
investment
ironman
irs
jacuzzi
jeremy
jester
jitsu
jupiter
killers
kindergarten
lad
laser
ledge
leprechaun
lingerie
listened
listens
lo
lungs
magnet
majors
mart
marxman
masseuse
masters
meetings
memories
menstrual
miners
mines
missiles
mitosis
mitzvah
mixer
mo
motives
muffler
muscle
mustache
namaste
narcissistic
necks
neymar
nike
nirvana
nurses
nursing
obscure
oeuf
offers
optimus
orderly
orion
overalls
overdosed
pac
pacific
paralympics
parks
pear
peep
pennies
permanent
petty
pharmacist
pharmacy
phish
pierced
plague
poet
poster
postman
poured
poverty
predators
producing
profile
profusely
promotion
pros
prosthetic
ps
psa
psychopath
pulse
punching
purchased
raisins
rats
reaching
recall
recommended
referee
releasing
render
requires
researchers
revolves
rigged
roommates
royalty
rusty
saran
satisfying
scores
scouts
seasons
sh
shaft
sliced
smartphone
sneaking
spongebob
spreading
stain
stew
stoners
stork
stutter
sunny
superior
surfer
surprisingly
swings
syrian
tables
tablet
tablets
tattoos
tease
teethbrush
tens
texted
texts
th
theorist
thighs
tho
tiles
titties
tournament
trend
tropical
tsa
tsss
tu
turds
tyrone
umm
underage
unzip
urinal
utensils
valentines
valve
vein
veterinarian
vinegar
violins
voters
wade
wanking
warehouse
western
wig
worms
wrapped
wrecked
wrestler
wrongs
zen
zika
zuckerberg
##60
##64
##aaaa
##ace
##ang
##ards
##athy
##atory
##avage
##balls
##bat
##blower
##cco
##cha
##chist
##cked
##cle
##coming
##craft
##don
##eed
##eeee
##ener
##ential
##erve
##exual
##fa
##fied
##flies
##fs
##gage
##ganda
##ifying
##inal
##inary
##ined
##ita
##itis
##ito
##jab
##jamas
##lack
##lar
##lasses
##lines
##lit
##lu
##minate
##mph
##nant
##nces
##ncy
##nickers
##nit
##obe
##ock
##ole
##ome
##orate
##pes
##pg
##phile
##pire
##plement
##posal
##print
##ram
##raut
##reak
##rence
##rge
##rior
##rip
##rist
##rity
##romancer
##rome
##rrow
##ruit
##sin
##sk
##sts
##tinence
##tinent
##tling
##tro
##tute
##uate
##ups
##urd
##uts
##vasion
##ville
##wash
##wept
##worthy
##ying
110
2015
20th
38
42
7th
96
abusive
accomplishment
ackbar
adopt
ads
advertisements
albino
allergies
ann
apologise
appeal
arctic
ariana
asphalt
attic
attraction
audi
autumn
axis
background
baghdad
bail
banning
barcodes
beaches
beavers
benefit
berry
bert
bites
blade
blizzard
bold
bondage
bong
boos
borders
brad
brave
burrito
cafe
campground
cancel
cases
casting
category
cds
central
cha
chainsaw
chefs
cinco
cleveland
clubs
colonoscopy
confirmed
connection
continues
coops
copyright
cosine
crayons
crippled
crossfitter
crucifixion
cuban
cuisine
curse
cymbal
dachshund
dalai
dallas
democracy
deported
deposit
derive
desperate
dino
direct
directly
disappears
division
dock
documents
donkeys
downloaded
downloading
downvote
dragging
dull
eagles
eater
elect
electronics
en
entitled
entrance
entry
epilepsy
equally
equation
era
etc
europeans
exhibit
explodes
extension
facility
fails
falcons
farty
fees
fetishes
firefighters
fishermen
flattery
flex
foam
forbidden
formed
freeman
friendship
frostbite
fu
functions
further
fusion
gallon
gentle
georgia
gerald
gi
gingers
gop
gorillas
grabbed
graduates
graham
gram
grande
graph
greta
guacamole
guests
hail
halo
handicap
hardcore
hatch
headphone
healthcare
hemorrhoids
hillbillies
homosexuality
honda
honk
hopes
household
hug
impediment
ingredients
installing
introvert
invaded
iphones
java
jerry
kentucky
kilt
klan
knocks
kurds
leftovers
legend
liberty
licking
logo
mansion
manufacturer
marie
marrying
matrix
mcgregor
measles
medals
mentioned
microwaves
minus
monitor
murders
nam
narcissist
naturally
necklace
neighbours
nguyen
occupation
october
offense
ohio
operating
optimistic
outer
paintings
papal
parliament
particles
particular
peeling
petting
pizzas
pops
preacher
prefers
prescribed
prius
progressive
proton
pushes
quacks
quitting
racial
raises
reaches
reduce
reference
relief
remake
removing
repeating
republic
reservation
rim
roamin
rode
roger
rounded
rubbing
rubik
ruthless
sake
salary
scent
schedule
schindler
script
seeds
sequence
sewing
shaved
sheen
shifts
sidewalk
similarities
skydive
slippery
sluggish
soil
spinning
squash
stake
stamp
starter
statistically
stocks
streaming
studied
stunts
subwoofer
sunburn
superpower
swearing
sweats
swimmer
tacos
talkies
tallest
tat
tauntaun
technician
tennish
teresa
thankful
threat
tipped
torn
tourette
tourists
tragedy
transport
traveller
trigonometry
trunks
tupac
twitch
tyrannosaurus
ugliest
ultra
underlay
unplugged
valuable
vine
wage
waited
wal
whispers
williams
witnessed
wolverine
wonton
yup
zelda
zeus
##aber
##ado
##ador
##apy
##astic
##ators
##ays
##blo
##boat
##bytes
##cating
##cc
##cca
##cess
##chel
##chy
##cil
##cism
##citing
##cking
##culating
##cussions
##dance
##ddy
##dest
##dic
##ecting
##ector
##eds
##eee
##eline
##ern
##ero
##esh
##ette
##ety
##eye
##flower
##fly
##ford
##fying
##gate
##gg
##gins
##gram
##hic
##iary
##ident
##ind
##isation
##itate
##iy
##jection
##key
##lect
##lion
##lis
##lix
##lop
##lord
##lot
##lp
##maker
##mire
##more
##nails
##nore
##oan
##of
##og
##olf
##ollen
##ona
##orious
##orm
##ots
##outs
##oys
##pillar
##pins
##ptic
##pton
##quent
##rah
##raph
##rat
##rator
##rified
##rio
##riot
##rise
##rophe
##rty
##ructure
##shot
##sss
##ssy
##tale
##tance
##tched
##tend
##tent
##uch
##uddle
##ues
##ugal
##ulence
##ume
##under
##uous
##ures
##uries
##urn
##urr
##urvy
##vised
##vision
##vo
##volve
##vour
##ways
##yed
##yle
##zard
273
33
80th
abs
accord
achieve
activist
acute
adderall
affairs
alfred
allegations
amputation
announces
apology
appliances
armageddon
armour
arthritis
arya
asylum
atheism
atlanta
autopsy
bangkok
bard
barking
beastiality
becuase
begging
beware
bishop
blackout
blindfold
blocks
bobby
boredom
bot
breathing
broad
bs
buccaneer
bunnies
cables
cakes
calculate
campsite
catholics
caveman
cavity
celebrating
celebrities
celsius
chairman
cheapest
cheats
cheeses
cher
childish
choo
chromosomes
circumstances
clam
classroom
claustrophobic
cleaned
clients
clumsy
codes
collided
comeback
commercials
confession
confirm
connected
cougar
cracks
craft
creatures
crowded
crucified
dealership
decade
define
demand
den
denominator
depot
depressing
deserved
destiny
destroying
deux
developing
diameter
diaper
diego
differently
dildos
discovery
diseases
disfunction
dryer
eachother
economics
edgy
edited
ellen
emoji
erectus
eunuch
exams
expired
explained
express
fabric
fags
farting
features
fella
fetishist
fig
flexible
flipped
forgets
freud
gandalf
generic
geology
glory
grease
greater
hahahaha
hannibal
hating
heating
hedberg
hers
hmm
hobby
hodor
hog
holder
honeymoon
housing
humble
hydrogen
impeachment
incident
independence
inn
insensitive
intended
jason
jeffery
jessica
jigsaw
jos
julius
kenobi
kia
kosher
lacks
lance
latino
latte
leaders
leak
lebron
leonardo
leppard
libertarian
lid
lightly
liter
logical
lone
loop
lukewarm
magnesium
maintain
maintenance
mammal
mandarin
mao
maps
marmalade
materials
melt
mennonite
messi
metoo
mia
mimes
minnesota
mistaken
mohammed
monoxide
mortician
motion
mugging
nonsense
numerator
nutshell
oceans
offs
oscars
outfit
packet
pal
pancake
parlor
particularly
peak
pebble
pedal
peek
pennywise
peppers
perspective
playstation
po
pornography
positions
possessed
postcard
potty
predict
procrastinator
produced
pronouns
prose
purse
quasimodo
quran
rains
receiving
redundant
ref
refreshing
refund
relations
relaxed
relies
repossessed
reputation
request
reservations
resume
retail
retriever
ribbit
robbing
romaine
roosters
rorschach
rubbed
sax
scam
scientific
separated
sham
shitting
shortly
shutdown
sighs
sighted
singers
skilled
slavery
smiled
sneezed
sniff
soles
spaces
spacex
speechless
spitting
spoil
stack
stereotypes
stinks
stockholm
stoop
stopping
stormy
stupidity
sumo
surgeons
surrender
suspended
tails
taiwan
takeout
talented
tangent
targets
tattooed
telescope
therapists
thon
ticks
timber
tiss
tops
torch
toughest
trading
transvestite
trips
tuba
um
uncontrollably
unoriginal
unprotected
unusual
unwritten
upgrade
urn
urologist
vaginas
vanilla
vape
venture
veterans
victoria
viking
vikings
vinyl
viral
waffle
wardrobe
weenie
welshman
wendy
wh
whiteboards
windy
withdrawal
wizards
wouldnt
yoko
yung
zones
##12
##23
##37
##40
##99
##aboo
##aded
##adium
##aint
##ams
##ania
##ase
##asis
##ativity
##ato
##aur
##aut
##av
##bc
##bian
##born
##bull
##burn
##cial
##cision
##cks
##cologist
##come
##covered
##cut
##dead
##dge
##dicated
##duction
##eb
##edo
##eri
##essive
##esta
##eted
##fare
##flict
##foot
##gara
##gation
##gged
##gration
##gum
##heads
##here
##hia
##hl
##hoo
##iented
##iled
##ill
##inating
##iss
##itary
##itz
##laws
##lder
##lia
##lica
##licated
##lich
##lier
##lievable
##lings
##low
##lton
##luck
##lves
##mobile
##nating
##ngle
##nsibility
##ointed
##ological
##oon
##oration
##oride
##ose
##otle
##ouse
##pal
##park
##pear
##phobia
##pic
##place
##position
##pper
##promise
##pse
##quire
##reeze
##rhea
##rict
##rks
##rlin
##rooper
##rop
##rough
##rporate
##scent
##scope
##set
##si
##sse
##ssive
##strian
##sty
##tan
##tand
##tape
##tation
##tionist
##tles
##tra
##tract
##tz
##uana
##uary
##ucker
##ull
##ulosis
##unes
##urne
##venient
##verse
##vetica
##viation
##vic
##wain
##wide
##xx
##yclist
##yl
##yn
##ynamics
##you
##yre
##zes
##ziest
100m
120
18th
21st
ab
abacus
achilles
advance
aircraft
algorithm
almond
amber
amputees
ankles
announce
appealing
application
archaeologists
archeologist
arrogant
articles
askreddit
aspiring
assignment
astronomer
audition
aussie
ay
backpack
backup
badum
banged
bankruptcy
baptist
batter
battlefield
beg
behavior
belle
belongs
beta
bigfoot
biologist
bodybuilding
bombed
bothered
boyfriends
brakes
breathtaking
brews
buffet
builds
bulldog
bulls
bumper
cabin
cameron
canal
capable
capitalization
capture
cart
cartoon
casinos
castro
championship
charger
ching
chloroform
choices
cinema
cities
cleans
climax
combat
comfort
communication
compound
concern
core
corrupt
counterfeit
creep
crippling
critical
criticize
crowe
dalmatian
dammit
damned
deaths
decades
demons
deny
depressants
deserves
development
diagnosis
differences
disability
diver
dope
dyson
editor
equations
errors
examination
execute
expectations
explosives
fairly
falcon
fax
fedora
feeding
filed
filter
fined
finest
flashbacks
flashing
flirting
flops
flow
fluffy
forecast
forehead
founder
fragile
franklin
freezing
gassy
genghis
ghetto
gingerbread
glow
goals
godfather
gods
golfing
gossip
granted
greasy
greeted
grilled
growth
guardians
hairs
handedly
handful
happier
harley
harmless
hawk
helmet
hid
highschool
historical
hitman
hive
homicide
hygiene
hypochondriac
ignored
impressive
including
infected
inmate
inspiration
insulted
invitation
ipad
ironically
irrelephant
isaac
jordan
judo
knots
kraken
lava
learnt
lecture
liberals
limb
lime
lisa
lithium
lookin
lumber
magazine
mamas
maneuver
mannequin
manual
marked
martini
mating
mayweather
mc
measurement
menstruation
messy
mick
mild
milf
minimum
minorities
missouri
moans
molecule
molestation
morbidly
motherfucking
moths
mussolini
nerves
newt
nitrogen
numbered
nye
oct
offend
ogre
optometrists
ordinary
ore
orleans
os
outfits
oval
overwatch
oysters
packs
pale
paradox
parrots
particle
passionate
pat
payment
peasant
personalities
persons
phoenix
photosynthesis
pianist
pickles
picnic
pitt
placed
planting
poll
poodle
pooper
popeye
posters
postmen
prayers
preparing
pressed
principal
printing
privilege
professionals
proposition
protesting
pulp
punches
queso
references
reflexes
regarding
relate
replacing
restraining
retirement
returning
reveal
reveals
ribs
ringing
rodent
ronda
rottweiler
rubs
rudolph
rug
ruining
sacked
schooled
scratching
seagull
seine
semester
senator
sheriff
shook
shooters
shrink
sideways
simba
skipped
skirts
skunk
slight
slope
snooker
snowed
someones
spaceship
sprouts
stash
studs
stumped
stuttering
subs
subtract
sucker
surname
survivor
swamp
sweating
symphony
tachyon
tally
tarzan
task
teams
terry
texan
theirs
toothless
torture
toxic
traded
trained
trippin
turkish
twister
twix
ugh
unborn
unconscious
unfortunate
unknown
unspeakable
uranium
urban
utter
vaccine
vacuums
vanished
vaxers
vehicles
velocity
vicious
vincent
vulture
walter
warren
warriors
weirdest
whispered
whopper
whorehouse
woah
worthless
wrinkly
yahoo
yards
yoghurt
ze
zealand
##32
##aah
##acle
##acles
##action
##aitlin
##aks
##aky
##aling
##ama
##aneously
##apist
##apped
##arian
##asty
##ature
##aves
##bia
##bin
##biotics
##bird
##bled
##boarding
##capable
##cat
##cer
##cession
##chan
##ched
##children
##chondria
##cloud
##cracker
##craper
##cream
##crite
##crolling
##cuse
##del
##dish
##dog
##dom
##done
##dr
##drant
##ductive
##eady
##eeeeee
##eral
##fair
##force
##friend
##funny
##game
##gamy
##gement
##gentina
##geon
##gic
##gnito
##graphy
##grasse
##hed
##hen
##hihuahua
##hing
##icated
##ich
##icing
##ief
##ifa
##igator
##igned
##ikh
##ima
##imer
##ims
##inder
##int
##ionist
##ision
##ista
##itches
##iter
##iti
##jack
##kers
##lain
##lane
##lare
##latter
##lds
##leader
##lected
##lection
##leigh
##lift
##lip
##lle
##log
##lone
##lurry
##lush
##lux
##mat
##meter
##mie
##mists
##nated
##nded
##ndu
##net
##ntial
##ography
##olt
##onia
##opes
##ored
##orium
##page
##paper
##pawn
##pedia
##pus
##racial
##raine
##reaker
##rena
##rents
##rg
##ric
##rifice
##rrison
##rto
##ruck
##rude
##ruel
##same
##scular
##sel
##ssed
##ssing
##stria
##tail
##tated
##tensive
##tician
##tick
##tile
##tracted
##tray
##tution
##uac
##uat
##uggling
##uk
##umps
##unge
##unning
##uppet
##urbator
##uter
##utra
##vania
##vard
##vational
##ven
##vers
##vian
##visible
##vitis
##weiser
##wis
##writer
##ww
10th
206
250
37
59
77
abort
accusations
ache
adobe
affect
afterlife
aint
ale
alice
allen
aloud
alternate
anarchists
andrew
antidepressants
apollo
apologies
appearance
applause
appreciated
approached
approaches
arrrr
aside
assed
authority
automatically
awhile
bagpipes
bankers
baptists
battleship
beds
believing
bermuda
besides
bid
biden
biker
biscuit
bitten
bleached
blink
boba
bookstore
boris
boson
bovine
brat
brew
btw
builders
bundy
bursts
caesars
camels
canary
capitalist
cardinal
cared
carl
catching
cdo
celebrated
chains
cheerios
cigar
cincinnati
citizenship
clan
classics
coaster
cockpit
colin
collie
colours
comey
committee
completed
compliments
confident
conservatives
contractions
copies
correction
cripple
critic
crosses
crotch
crowds
crown
crunch
cucumbers
cultural
curium
curling
cyclops
darn
deadly
debating
dec
declined
deeply
defence
deja
delivering
demands
deport
depresso
desire
detector
detergent
developers
digs
dilemma
dim
display
dominated
domino
dora
doug
driven
drones
dumbest
dun
eddie
educated
eggo
electrocuted
elongate
elsa
endless
enormous
enthusiast
episodes
eraser
ereptile
essential
euro
exclaims
exhaust
experiences
fahrenheit
falafel
fattest
feather
feline
fender
fiber
fidget
filming
fireman
firemen
fireplace
flashlight
flesh
flooding
flop
forgetting
foundation
frame
freddie
freddy
frequency
fret
fruity
gal
gambler
gigantic
glued
gosh
goth
greeks
grenades
grinder
grinds
groot
grounds
guantanamo
guarantee
gulag
happiest
harbor
heartless
henson
hills
horns
hospitalized
humanity
humidity
hunters
hypocrites
iceland
identifies
igloos
imperial
inbox
incel
infant
informed
insulting
intent
interrupted
intestine
invested
investigating
investing
involving
irritable
iv
ja
jackie
jake
jenny
jizz
joaquin
journey
juliet
jumpers
kate
keith
kilo
kink
kit
knob
knuckles
kung
lawsuit
leaked
leaning
leans
leash
lgbtq
lifting
lightyear
ling
lizards
lotion
lousy
lumberjacks
lung
lure
macdonald
madness
makers
manure
maple
marge
masterbating
mathematical
meanwhile
measured
measuring
meatballs
mega
melting
metro
midas
miniature
mining
mod
moist
moons
motel
motorbike
mouthful
mow
mph
mu
mythical
nan
narnia
nay
neon
netherlands
nixon
noone
nosey
nosy
numb
objective
ono
opponent
ostrich
ourselves
ovary
owen
oxide
paralyzed
parenthood
peaceful
pears
pecker
penalty
pepperoni
performs
pies
pinch
pint
plateau
plunger
pointing
poisoned
postal
pouring
prank
prism
procedure
producer
professors
protons
proven
qaeda
quarters
rabbis
rack
radiation
railroad
rebel
receipt
recording
reflection
regardless
rely
rental
replacement
risky
roaming
robbers
rocky
roles
ronaldo
rotten
rudy
runners
runts
sail
salmonella
satisfy
scales
schizophrenia
screenshot
sects
secure
sedans
seduce
seizures
sentient
sessions
sewage
sewer
shaken
shaker
shallow
shi
shorten
shucker
sickness
sided
significant
signing
silicone
sincerely
sis
sitcom
sites
sketch
skill
slides
slips
smuggle
snatch
sneezes
sneezing
socialism
socket
speakers
spears
specialist
spectacle
speeches
squeeze
stale
stall
stereo
strap
strategy
subscribers
suh
superbowl
supper
survivors
syncing
tac
tapered
technique
textbook
thesis
thorough
throne
thru
tigger
tis
toto
tourettes
towel
tranny
treadmill
triangles
tricycle
trumpets
tutor
typing
underneath
uniform
unrealistic
unwanted
urinals
urinate
venison
venus
versus
vibrators
volkswagen
vr
warmth
warn
wasabi
weirdo
werewolves
whitehouse
windmill
woken
wonders
woofer
worshipper
wrapper
##'
##,
##.
##?
